[PAD]
[UNK]
[START]
[END]
!
"
#
$
%
&
'
(
)
*
+
,
-
.
/
0
1
2
3
4
5
6
7
8
9
:
;
<
=
>
?
@
[
\
]
^
_
a
b
c
d
e
f
g
h
i
j
k
l
m
n
o
p
q
r
s
t
u
v
w
x
y
z
¡
£
©
¿
ð
ø
τ
в
ы
–
—
‘
’
“
”
•
€
∇
♪
♫
中
会
你
吗
好
文
说
the
and
to
of
that
in
it
you
we
is
this
so
they
for
was
##s
are
but
have
what
on
with
can
about
be
as
there
at
all
not
my
one
do
people
re
like
if
from
our
or
an
when
these
just
now
he
because
by
me
how
out
them
more
up
very
your
know
their
had
going
who
were
think
would
see
which
##ing
us
really
here
time
get
ve
then
world
some
##ed
has
into
don
will
where
way
other
years
actually
could
things
no
been
well
go
want
make
right
first
those
she
than
two
something
said
also
##d
even
much
new
##ly
most
life
over
his
only
look
thing
many
little
back
work
say
got
need
take
why
every
did
lot
around
good
her
different
through
kind
let
down
same
being
ll
day
come
##er
three
year
use
called
doing
any
after
##y
today
made
put
##e
its
human
tell
percent
change
find
didn
own
great
before
another
never
##a
thank
fact
should
might
each
started
talk
idea
better
big
##r
still
last
thought
give
system
brain
off
##t
together
##es
important
able
next
does
him
part
long
went
too
000
water
problem
start
again
story
course
between
women
few
love
##al
came
technology
used
show
##n
ago
may
place
old
help
maybe
found
end
bit
question
mean
feel
example
looking
point
doesn
live
real
person
understand
done
10
school
call
always
##ers
wanted
ever
children
data
four
believe
away
five
working
number
everything
trying
second
whole
##o
country
means
information
million
high
times
using
small
try
sort
power
body
home
thinking
become
enough
space
create
without
less
food
took
making
kids
future
best
left
money
while
light
getting
man
energy
social
lives
ask
comes
city
health
such
am
sense
family
design
across
talking
earth
##i
probably
happened
told
once
hard
experience
imagine
##l
countries
pretty
half
quite
moment
anything
science
makes
yet
coming
building
having
build
ways
asked
almost
someone
room
later
often
saw
seen
both
living
else
20
remember
single
dollars
stuff
move
cells
community
bad
learn
happen
video
whether
side
far
##m
nothing
young
possible
care
hand
simple
men
states
mind
inside
interesting
words
days
process
already
within
instead
##ic
goes
open
##rs
case
planet
sometimes
happens
myself
says
problems
sure
africa
play
global
matter
language
answer
computer
keep
wrong
picture
##k
##on
until
six
set
##able
history
public
since
##ment
billion
age
reason
cancer
saying
face
laughter
##ness
child
ok
project
war
true
hope
group
isn
research
looked
##ation
business
yes
ideas
job
though
under
heard
united
read
basically
knew
learned
study
wasn
amazing
everybody
guy
months
stories
bring
music
word
everyone
woman
friends
book
##ion
form
##in
car
nature
built
beautiful
heart
species
top
government
self
100
looks
order
others
control
oh
against
turn
stop
company
head
##us
became
must
animals
middle
exactly
society
line
learning
black
night
sound
state
hear
past
##h
##ity
taking
large
places
30
themselves
couple
share
itself
##an
decided
questions
name
hours
level
internet
okay
works
run
50
thousands
completely
##le
students
ourselves
couldn
disease
piece
##ive
america
house
universe
gets
early
##c
happening
turns
rather
free
somebody
mother
created
along
finally
cell
huge
yeah
based
during
air
environment
news
ones
model
education
american
##ia
third
worked
kinds
century
art
yourself
minutes
##ting
reality
##or
won
game
front
entire
##p
machine
god
systems
perhaps
companies
known
figure
least
given
needs
china
eyes
changed
gave
moving
full
##g
happy
humans
takes
behind
difficult
felt
scale
white
natural
particular
team
easy
parents
longer
outside
began
ocean
##ist
seeing
close
death
fish
guys
seven
difference
leave
per
taken
climate
needed
cities
india
powerful
size
population
culture
media
##te
common
hands
15
simply
realized
ted
##ized
scientists
image
blood
turned
certain
audience
area
political
lots
york
ability
land
cost
voice
center
amount
##ted
##u
patients
walk
cannot
whatever
either
lost
phone
week
view
deep
##th
red
friend
quickly
step
born
spend
gone
attention
value
changes
grow
deal
eight
economic
local
poor
terms
parts
spent
beginning
dna
feeling
father
risk
challenge
speak
surface
market
rest
growing
low
wouldn
green
write
opportunity
tried
south
weeks
short
##ry
eat
physical
girl
##ies
40
##less
blue
girls
complex
test
##ate
##en
anyone
field
paper
pay
understanding
##nt
wonderful
behavior
oil
alone
forward
##ism
access
hundreds
sitting
fear
##um
met
shows
millions
likely
##ian
buy
personal
wrote
numbers
growth
support
giving
realize
areas
books
sea
interested
knowledge
average
key
##ling
morning
animal
##ar
seems
tiny
ground
##ts
starting
watch
act
national
literally
brought
soon
##b
discovered
street
theory
##0
changing
die
stage
feet
developed
incredible
online
law
medical
telling
program
recently
##ge
english
##ter
fast
##is
economy
north
structure
truth
##ary
solve
tools
dark
absolutely
images
especially
normal
individual
seem
result
##ize
development
several
bottom
generation
hold
nice
##ful
asking
movement
type
##ch
color
ca
clear
focus
nobody
carbon
save
running
relationship
term
sleep
##ce
map
force
lab
##est
creating
patient
aren
choice
impact
issue
technologies
##ally
##ine
fly
playing
similar
material
stand
sun
groups
cut
designed
industry
beyond
class
gives
##f
europe
towards
cars
ice
memory
miles
shape
cause
communities
##man
12
allow
effect
solar
showed
begin
cool
major
network
##ty
kid
meet
rate
chance
hour
issues
##tion
solution
died
situation
sounds
##ck
stay
developing
becomes
modern
special
baby
hundred
dead
evidence
including
lived
rules
digital
meaning
##ble
drug
eye
teach
##ure
fun
university
writing
present
wall
eventually
please
reasons
resources
##ous
however
product
robot
ready
haven
reach
computers
speed
listen
potential
dream
incredibly
nine
response
perfect
poverty
putting
trust
experiment
explain
bigger
knows
break
jobs
produce
worth
basic
bodies
source
lead
quality
suddenly
approach
guess
office
college
talked
results
action
innovation
message
walking
choose
involved
usually
among
available
crazy
drugs
object
evolution
chinese
notice
general
month
sex
obviously
pain
continue
everywhere
send
pictures
creative
higher
hit
non
violence
box
certainly
moved
totally
##re
mass
worse
##ists
200
doctor
led
##ant
biggest
conversation
measure
named
revolution
fall
particularly
cases
rights
##et
games
##w
african
faster
60
fight
##ial
further
skin
treatment
journey
schools
crisis
finding
25
healthy
scientific
drive
boy
strong
vision
anybody
pick
security
table
west
mom
role
##ne
allowed
showing
develop
film
road
add
onto
success
grew
favorite
progress
##age
examples
safe
doctors
software
starts
student
##x
hospital
spread
##land
intelligence
minute
sit
truly
reading
##st
bacteria
goal
objects
plants
brains
follow
loved
democracy
decision
taught
##ma
international
standing
zero
families
organization
##ent
##z
door
largest
specific
google
movie
wait
wants
##1
east
impossible
medicine
positive
increase
##ns
connected
studies
humanity
individuals
lose
materials
watching
##ated
perspective
consider
indeed
rich
anyway
code
device
conditions
older
##2
pattern
recognize
americans
extraordinary
##4
extremely
500
essentially
leaders
meant
tells
fire
plant
shown
##ped
above
camera
compassion
happiness
##ors
##ra
activity
male
provide
##8
##tic
models
decisions
written
freedom
late
##3
mine
record
##de
##ments
exist
expect
fine
kept
son
police
11
plan
sent
smart
solutions
clean
income
period
somewhere
##el
##ile
mental
president
teachers
virus
list
machines
somehow
supposed
throughout
interest
projects
thousand
##nce
training
##les
lower
successful
ended
pieces
##led
except
screen
although
effects
travel
##9
##ie
allows
buildings
tool
##6
exciting
protect
central
wife
##il
cold
lines
listening
policy
weren
##ve
massive
web
hot
slow
wish
80
stars
driving
forms
larger
party
wonder
fundamental
practice
traditional
waste
##ance
beings
biology
current
near
##ging
beauty
unfortunately
architecture
becoming
smaller
main
##king
decades
upon
##ping
bunch
critical
nuclear
pressure
##red
alive
win
##ating
anymore
teacher
ancient
effective
robots
tree
series
18
content
dangerous
diseases
genes
patterns
speaking
tend
touch
trees
##ization
complicated
challenges
clearly
female
gas
waiting
##id
performance
context
dad
mars
himself
treat
village
##7
race
range
skills
square
points
visual
thanks
##ll
kill
levels
none
directly
earlier
genetic
plastic
politics
##ring
sorts
nearly
physics
seconds
career
foot
greatest
page
site
##as
anywhere
products
search
whose
##ual
giant
killed
moon
stress
service
trade
version
##se
despite
##ding
citizens
excited
path
rise
concept
minds
town
emotional
experiences
greater
wind
broken
forget
store
##izing
ahead
dog
legs
shared
##ue
bank
electricity
strange
therefore
depression
magic
moral
services
famous
governments
meeting
position
serious
actual
babies
##5
##ged
##ible
##it
immediately
institutions
train
types
unique
##ious
feed
causes
helped
mostly
shot
weight
##line
costs
familiar
final
function
hey
military
river
connect
decide
walked
##tive
knowing
secret
afraid
dr
production
survive
##ence
colleagues
environmental
heat
engineering
improve
bed
relationships
uses
private
reduce
90
highly
##ur
decade
direction
floor
understood
values
worst
##ities
mobile
park
terrible
useful
summer
western
boys
hair
molecules
peace
price
recent
##am
answers
forth
sharing
atmosphere
communication
differently
expensive
researchers
sell
connection
draw
identity
matters
obvious
choices
eating
sky
aware
closer
financial
neurons
purpose
straight
##ish
complete
subject
track
feels
fit
king
300
address
invented
fantastic
pull
extra
published
##up
below
daughter
flow
instance
raise
region
sat
##ving
chemical
flying
related
enormous
languages
##v
consciousness
farmers
tv
hiv
members
##cing
##os
justice
religion
biological
conflict
sign
teaching
willing
board
following
laws
societies
noise
push
seemed
twice
##ut
apart
nation
planets
programs
rule
star
total
urban
workers
held
post
stopped
ultimately
chris
song
evolved
math
paid
possibly
sorry
speech
studying
sustainable
easier
emotions
gene
helping
text
aid
attack
communicate
creativity
##tor
bill
opposite
oxygen
pass
loss
worry
##bs
70
artist
noticed
popular
##ze
capital
creates
dying
television
website
##at
##pe
carry
easily
significant
##ler
husband
ran
##na
##ned
gender
hearing
##ries
achieve
capacity
funny
mission
produced
standard
task
##tes
16
island
particles
scientist
various
##ps
##way
drop
glass
organizations
temperature
##ms
14
##me
24
core
fuel
john
passed
press
##hip
devices
elements
remarkable
base
character
explore
offer
report
believed
differences
event
facebook
fix
forces
networks
radio
streets
dance
degrees
distance
experiments
industrial
quick
responsibility
##ions
forest
##ls
##ning
arm
bees
birth
dollar
genome
tissue
constantly
gotten
multiple
active
applause
opportunities
original
shift
slightly
suffering
weird
adults
cultural
describe
leading
##ral
condition
discover
extreme
london
majority
window
check
infrastructure
inspired
invisible
museum
birds
california
hate
importantly
soil
wild
brother
cover
dreams
fully
helps
imagination
negative
sick
surgery
##ber
agree
billions
immune
lights
passion
##rd
bringing
civil
degree
entirely
lucky
motion
played
spaces
strategy
17
bought
coffee
focused
french
join
meters
moments
otherwise
structures
due
engage
flight
lack
apply
block
diversity
responsible
super
turning
yellow
##ins
deeply
microbes
nations
return
avoid
basis
caused
conference
events
failure
supply
vast
wear
##sh
hole
missing
professor
raised
slide
waves
##ability
benefits
damage
double
forever
interact
prison
definition
email
shouldn
stick
protein
sister
##ds
affect
holding
oceans
trouble
unless
##ical
capable
david
traffic
##dy
ball
collective
effort
engineers
fair
gay
landscape
legal
letter
walls
wealth
##ants
##ny
according
corner
fighting
foundation
respond
##der
400
daily
religious
respect
arms
markets
spending
wearing
leads
necessary
##nd
calls
edge
european
goals
identify
wave
possibility
quantum
##go
blind
dinner
rock
##rate
##ro
equal
studied
##ol
catch
currently
figured
leaving
photo
prevent
##ration
begins
benefit
slowly
stuck
vote
afghanistan
efficient
target
##per
artists
considered
cross
faces
harder
##val
bridge
discovery
generations
signals
##uring
account
caught
designers
leadership
received
brand
everyday
labor
mr
predict
wide
##ably
##ke
lesson
visit
13
artificial
bear
brings
colors
separate
signal
aids
mathematics
sexual
struggle
transform
##ey
##light
##oo
afford
foreign
leader
worried
##ute
boat
compared
cycle
san
surprise
survival
described
limited
match
mountain
necessarily
ship
deeper
desire
feelings
prize
steps
tough
##ations
##tions
balance
exact
gold
losing
moves
neighborhood
net
photograph
talks
campaign
debate
fashion
filled
organisms
##ks
##zing
experienced
hidden
leaves
names
##ton
electric
influence
manage
phones
requires
smell
sudden
sugar
ten
tremendous
##bly
childhood
phenomenon
safety
associated
complexity
creatures
mouth
typical
virtual
agriculture
argue
cat
consequences
enjoy
fairly
marriage
treated
ai
folks
grown
honest
la
partner
throw
##ain
##rt
asia
background
opened
##ca
##cy
##tors
argument
circle
collect
coral
demand
era
japan
sequence
voices
watched
##ium
co2
competition
hell
invited
plus
profound
##ons
fell
movies
paying
rates
twitter
charge
date
failed
farm
followed
mentioned
sand
spot
bone
engine
experts
factors
fourth
lies
threat
trial
fill
grade
highest
homes
perfectly
strength
symptoms
advantage
contact
electrical
etc
hopefully
magazine
atoms
brilliant
card
essential
fascinating
increasing
insects
memories
planning
random
tons
concerned
emissions
facing
finished
increasingly
surprised
calling
photos
pounds
regular
seriously
universal
##ology
##ties
brazil
british
broke
coast
germany
grandmother
invest
investment
meat
professional
sad
sold
trained
weapons
##ide
##que
desert
exercise
existence
joy
painting
represent
wake
whenever
##ians
##ner
article
businesses
commercial
empathy
expected
fields
indian
refugees
risks
anti
arrived
creation
married
taste
##om
accept
deliver
forced
mark
saving
sector
##cent
##med
##va
emotion
galaxies
rare
rural
thoughts
trillion
tumor
zone
##la
##nts
##ri
##sm
apple
coal
curious
direct
galaxy
heads
inner
leg
letters
ordinary
pollution
radiation
tech
wisdom
##out
alternative
appear
bird
driven
equivalent
lie
note
platform
pop
sentence
surprising
washington
##ip
canada
engineer
managed
rapidly
signs
soldiers
weather
connections
conversations
count
covered
feedback
mexico
nervous
plane
##ee
##ets
##ming
150
added
closed
diet
faith
gravity
theater
users
##ans
##den
detail
launched
muscle
principles
scene
tens
awesome
cognitive
ends
increased
intelligent
normally
principle
proud
release
##ard
##ss
characters
classroom
consumption
management
paint
quote
tomorrow
whom
clinical
drawing
election
enter
exists
hasn
lunch
messages
mothers
mouse
silence
spoke
variety
adult
aging
camp
cheap
crime
novel
picked
statistics
wow
##ite
chain
cure
mathematical
opening
typically
##sive
chemistry
distribution
interaction
jump
member
sources
stood
##ow
3d
capture
de
evolutionary
hurt
kilometers
liquid
malaria
pages
trip
videos
##sion
##ward
compare
dealing
drink
facts
heavy
method
notion
operating
shame
situations
toward
viruses
worldwide
cloud
conscious
democratic
finish
gap
hadn
lady
molecular
proteins
regions
trick
vulnerable
##men
20th
breast
breath
detect
iraq
keeping
molecule
processes
spirit
valuable
finger
include
infected
maps
released
require
vehicle
warming
##use
actions
addition
advanced
australia
collection
details
fat
garden
roughly
saved
soul
station
accident
analysis
causing
gift
independent
library
mystery
poetry
promise
suggest
unlike
wondering
##logy
activities
anxiety
beat
belief
civilization
continent
court
generate
liked
meaningful
option
politicians
specifically
stem
britain
bus
confidence
define
evil
expression
fail
fossil
importance
reaction
southern
valley
##ified
bits
carefully
designing
empty
falling
prime
relatively
resistance
sports
technical
worlds
##als
##ct
##fy
##ify
##ir
army
defined
department
generally
hero
honor
keeps
master
mit
neighbors
organic
perception
##des
copy
cultures
factory
graduate
institute
layer
options
rain
round
shapes
switch
yesterday
doubt
einstein
grand
mistakes
radical
represents
winter
##mer
affected
beach
designer
lifetime
testing
##by
algorithms
chemicals
church
cutting
dots
gdp
graph
link
print
processing
roll
sample
spectrum
whereas
youtube
##aging
##time
##ves
21st
brown
comfortable
dinosaurs
employees
harvard
introduced
narrative
opinion
rid
serve
shoes
sites
teams
thinks
versus
##bed
##ky
al
amazon
antibiotics
battle
definitely
dimensional
dry
kenya
metal
producing
richard
scared
tail
trials
victims
##un
clock
economics
fellow
metaphor
mistake
previous
##ah
anger
express
factor
intellectual
organized
physically
policies
##ched
##py
absolute
challenging
driver
false
illness
player
players
remote
teeth
ah
centuries
chair
convinced
depends
ecosystem
exchange
former
hide
poem
possibilities
reached
sub
techniques
underneath
##ator
angry
burning
corruption
george
pleasure
puts
remain
##one
airplane
ants
arts
dogs
existing
francisco
hall
interview
killing
kitchen
profit
property
prove
sensitive
stone
##ay
##ings
##vation
75
explained
fake
features
fiction
holes
nor
northern
participate
pulled
ray
stronger
transformation
warm
##ire
##istic
##ition
##ot
##rating
##ug
awful
construction
effectively
england
gain
hospitals
sending
spring
##ular
##ved
cameras
combination
correct
flag
fundamentally
gut
healthcare
interface
muslim
naturally
organs
primary
properties
resource
setting
union
19
bright
dimensions
harm
psychological
satellite
seat
swim
unit
constant
dramatic
embrace
encourage
epidemic
houses
potentially
protection
status
##ier
controlled
equally
equipment
gun
introduce
movements
##bi
##ft
35
45
awareness
combined
discussion
entrepreneurs
ii
partners
quiet
senses
##ery
##ron
##ters
admit
blocks
bread
location
lying
milk
nose
ride
survey
##ncy
amp
button
clothes
fishing
flat
fresh
invention
mile
minister
miss
remind
sides
stupid
transition
##atic
##my
##pt
bar
behaviors
concrete
dynamic
environments
newspaper
required
sees
sum
suppose
younger
##co
bones
congress
conservation
emerging
engaged
infection
joined
judge
mid
parent
pre
reward
skill
##ded
##gs
##ics
600
99
attacks
consumer
crowd
expand
france
literature
neither
prepared
replace
roads
user
##da
##za
claim
components
hi
infinite
internal
perform
sets
singing
solving
tall
underwater
##ley
acting
budget
closely
credit
director
disorder
fund
selling
shaped
sight
therapy
topic
transportation
##fied
ancestors
centers
curve
ears
faced
fewer
globe
hoping
mechanism
nasa
occur
relative
remains
roof
solved
tests
traveling
##ad
##ars
##matic
##ulation
2000
chose
continued
danger
defense
dropped
formed
german
neural
nigeria
performing
recognition
solid
##ill
##lin
##ses
busy
click
efficiency
flies
functions
marine
overcome
personally
privacy
providing
runs
violent
##ibility
##ome
##ulating
cards
convince
courage
eastern
emergency
funding
largely
paul
protected
receive
relevant
stayed
steel
swimming
volume
wars
##ination
abuse
amounts
curiosity
disaster
escape
intense
patent
remove
scary
seek
sensors
sunlight
unusual
##hood
##sis
birthday
bottle
elephant
equality
fingers
grid
islands
manufacturing
marketing
musical
row
russia
visible
##ud
2010
bomb
breaking
dramatically
horrible
host
lay
logic
pair
quarter
recorded
restaurant
thin
##bing
##ga
##ically
##to
##ude
accurate
advice
ages
bang
bubble
co
collected
drinking
eggs
laboratory
lessons
populations
productive
somewhat
split
style
technological
##ened
##ta
##zed
applied
carrying
determine
dioxide
em
exploration
habitat
hotel
hydrogen
jail
japanese
medium
mention
outcome
percentage
practices
strangers
tested
vaccine
##uity
assume
charles
circumstances
goods
inspiration
los
recognized
refugee
rooms
section
staff
wood
##ering
##ification
##ior
##son
##ulate
acts
allowing
appreciate
axis
bush
cortex
fold
generated
hits
mountains
pacific
practical
queen
sing
synthetic
tradition
transformed
welcome
##ied
brothers
destruction
distributed
efforts
elephants
ladies
loud
march
philosophy
smile
surrounded
tasks
technique
windows
##ger
##ria
##uation
2008
alzheimer
collaboration
greenhouse
illegal
imagined
launch
linked
mortality
odd
participants
psychology
reaching
shut
suffer
sweet
##ase
##bia
##im
band
cartoon
chicken
computing
divide
drives
forests
fuels
interests
muscles
offered
pole
shop
##board
##een
##ign
##ld
##point
algorithm
applications
aspect
authority
bag
battery
borders
boston
experiencing
grandfather
height
horse
limits
meter
methods
parking
records
severe
stream
struck
##sed
##ures
anderson
chicago
classes
enable
innovative
laptop
length
males
mechanical
monkey
occurred
overall
pushing
resolution
terrorism
unknown
views
##fe
##iest
##late
21
border
breathe
buying
carried
conclusion
equation
evening
expert
films
gray
lake
motor
placed
rising
truck
writer
##bling
##ished
##sing
affects
attempt
burn
committed
contrast
display
exposed
feeding
handle
increases
interactions
joke
laser
mammals
mirror
ours
papers
presence
songs
sophisticated
statement
whales
##ates
##gation
##j
##right
##ub
##uck
architects
aspects
audio
figures
flu
grab
hearts
institution
latin
organism
rely
surely
telescope
youth
##ative
##logists
##ony
##rated
##vy
breathing
golden
hunger
painful
paris
rice
score
searching
steve
vehicles
wire
##ages
##lies
##pers
##sa
##tation
##ump
afternoon
app
celebrate
climb
contribute
cooking
electronic
guide
ideal
organ
puzzle
writers
##ha
##ice
##nes
##ney
##ural
abstract
atlantic
cash
cup
element
existed
explanation
falls
frequency
heroes
laugh
meetings
michael
native
passionate
phrase
plans
reverse
struggling
suicide
wine
##ak
##ald
##ap
##ka
##ti
##ture
agreed
appropriate
cave
christmas
inequality
james
mess
photographs
pregnant
rocks
secure
suggests
wondered
##ches
##han
##ray
boring
contains
depressed
domestic
dozen
fortunately
hello
insight
instrument
invent
limit
mix
outcomes
personality
properly
racist
silk
thomas
transport
traveled
weak
##car
##io
##nal
##ort
19th
application
capitalism
clever
collapse
creature
expectations
fears
frankly
friendly
involves
korea
notes
phase
plate
season
spinal
spoken
##cal
##ured
##water
accessible
agency
aside
autism
cents
clinic
conventional
cord
decline
error
provided
shake
spreading
subjects
tape
tonight
wherever
##gram
##ick
##mes
22
bet
chip
commitment
depending
disappear
economists
fed
fifth
frame
grain
hang
invite
lifestyle
nowhere
reported
sir
stable
standards
string
treatments
upper
##cks
##logist
2007
architect
arctic
captured
cats
channel
classic
corals
crying
density
depend
evolve
feature
flowers
framework
iran
journalist
journalists
operate
plays
precisely
printing
reducing
romantic
signed
studio
succeed
treating
##aries
##book
##ered
##fying
##ki
apparently
barely
bike
citizen
clip
combine
consumers
continues
darwin
extent
humor
implications
magnetic
raising
reflect
shark
silent
theme
title
voting
wheel
##be
##dle
arguments
automatically
brave
colleague
dignity
engaging
flew
fruit
honey
housing
mode
monkeys
paradigm
rapid
rational
september
tower
transparency
uncomfortable
units
villages
zoom
##east
##fish
##pes
angeles
bell
clouds
destroyed
ear
lungs
mainly
pack
spiritual
symbol
tracking
ultimate
volunteers
##cs
##gate
##net
##ole
##ore
##set
##tate
23
adding
attached
chocolate
com
diagnosed
enemy
fluid
illusion
lens
obsessed
peak
relate
repeat
samples
shoot
shopping
stands
wikipedia
##ba
##ces
##ively
##ked
boxes
cheaper
component
contain
dirty
distant
drawn
floating
gather
globally
grateful
historical
hungry
identical
impacts
lung
missed
nobel
peer
powers
presented
recording
robotic
roots
shall
surveillance
threats
underground
##gon
##ig
##ives
##lock
##ric
##rine
##table
##tory
author
bg
collecting
comfort
crash
da
diabetes
exploring
fixed
genius
maintain
muslims
obama
ought
permanent
prefer
prices
removed
represented
ring
rocket
scan
stranger
sustainability
texas
trend
yours
##op
##tter
##ua
announced
concepts
confused
consequence
destroy
divided
facial
interacting
kingdom
measured
multi
provides
shock
speakers
symmetry
theories
trauma
vital
wanting
2009
academic
achieved
adam
appears
bias
chart
confident
cook
corporate
deaths
designs
dozens
encounter
entered
entertainment
grows
ignore
iphone
israel
particle
pure
repair
spanish
tired
toxic
worker
##bo
##ching
##mi
##vable
800
ate
careful
crucial
darkness
debt
finance
greek
hardly
herself
isolated
letting
obesity
opposed
reveal
root
sheep
tube
##date
##hed
##her
##lap
##low
##no
##work
adapt
chest
circuit
drove
economies
fascinated
gulf
imaging
input
inspire
interestingly
lets
poorest
privilege
pushed
reduced
robert
silicon
smoke
stock
ugly
uncle
##bility
##cies
##lete
##oid
##ule
additional
advance
ant
apartment
appeared
blow
cute
dancing
dot
frozen
gentlemen
identified
injury
mad
mechanisms
odds
orbit
pace
plenty
snow
strategies
vessels
##day
##gy
##ory
##rable
##ury
backwards
desk
diverse
dust
ensure
granted
martin
meanwhile
official
parallel
ph
polio
rescue
sensory
slavery
soft
tap
thrown
translate
##bit
##ility
##ise
##ord
##tered
##uous
accepted
behave
blog
club
cow
customers
ecosystems
educational
ending
external
improvement
journal
layers
lighting
manhattan
myth
operation
pakistan
pandemic
passing
pink
productivity
resistant
rwanda
shirt
tries
whale
##dies
##fully
##over
##ung
##ux
##vate
95
directions
farmer
flip
insurance
iron
knee
latest
orange
pool
proof
raw
react
recovery
reefs
returned
seed
##berg
##cular
##gan
##ius
##li
##ose
##rian
90s
animation
banks
communications
dedicated
fiber
foods
gases
interactive
likes
measuring
narrow
powered
reef
selection
speaker
wireless
##nic
##rin
27
65
80s
actor
beliefs
connecting
drill
egypt
handed
includes
integrated
islam
jim
limb
liver
monitor
parties
route
seeds
sweden
tea
tears
toilet
uncertainty
victim
##do
##mark
##ography
##rator
##res
consume
delivered
finds
gates
hormones
luck
measures
mechanics
mice
pilot
pocket
presentation
shoulder
sleeping
surgeon
universities
waters
winning
##cus
##ert
##ison
##lands
##let
##rts
##verse
balls
beer
belong
brief
cry
dense
disorders
earn
excuse
failing
haiti
mindset
neighbor
penguins
prototype
rarely
religions
reminded
sphere
tax
thick
toy
walks
wash
##ni
##pa
##rous
##ten
##ulated
250
advertising
armed
blame
boundaries
colony
drivers
educated
filter
football
forgotten
immediate
instruments
killer
magical
neuroscience
piano
pollen
produces
proper
reference
script
stops
till
##ale
##ens
##inating
##mal
##mates
##pose
bee
buried
caring
determined
doors
federal
happier
heal
industries
inspiring
january
laid
license
lovely
oldest
poet
sharks
smarter
stanford
supported
talent
thirds
tom
tricks
usual
visited
##cating
##ica
##ight
##side
##ways
##wood
anonymous
behavioral
besides
chaos
concern
crops
discoveries
dive
elected
embedded
flower
focusing
hill
instructions
legacy
micro
permission
ridiculous
shadow
stages
thus
tip
uganda
viral
wing
##house
##ris
##rush
2005
alien
cheese
engagement
ethical
infections
lawyer
loop
microsoft
miracle
motivation
ms
nearby
nutrients
pointed
protecting
racism
scales
shooting
telephone
twenty
vertical
witness
##ening
##lines
##posing
##rant
##ress
autonomous
chapter
circles
delivery
extinction
founded
gods
grass
hardware
honestly
initial
mayor
meal
organize
origin
pause
pound
reform
resilience
review
sentences
suit
underlying
##ex
afterwards
agricultural
arrive
beneath
cake
chosen
controlling
council
helpful
holds
june
lions
musicians
opens
opinions
reputation
secrets
spots
symbols
unlikely
virtually
##culation
##ily
##ng
##nsive
##ribute
##ul
70s
angle
clients
deserve
extend
extinct
fan
informed
ingredients
makers
marry
neck
neighborhoods
nest
owned
picking
positions
predicted
predictions
richer
russian
sport
stations
suggested
trends
##end
##lls
##mation
##pped
##ster
##ult
##une
africans
agenda
aircraft
amongst
baseball
bats
bears
bicycle
chances
dependent
dictionary
document
feminist
gradually
higgs
lecture
liberal
microscope
photography
pitch
pulling
recover
significantly
teenagers
vaccines
##ality
##ave
##dated
##iles
##ini
##lating
##lo
##nia
##ok
##orn
##uel
asks
assumptions
characteristics
chimpanzees
estimate
fabric
favor
figuring
file
governance
insect
lift
loving
mary
mood
nurses
replaced
separated
simplicity
surfaces
survived
syndrome
unexpected
vacuum
vulnerability
##els
##ency
##ges
##nate
##rial
##ship
##tte
##uting
addiction
attitude
bible
blah
ceiling
charity
consistent
controls
counter
dear
disability
district
elsewhere
farming
florida
fought
hanging
henry
hollywood
incentives
inch
inevitable
italy
lawyers
pen
photographer
reports
revenue
simultaneously
suffered
targets
trigger
via
widely
wound
##di
##hop
##inate
##ological
##room
##tical
##ville
##zation
26
accounts
breaks
cast
chief
collectively
depth
elections
emerge
emerged
empire
essence
flexible
funded
mysterious
navigate
optimistic
originally
reliable
researcher
rush
sales
smoking
spin
successfully
threw
tour
##city
##he
##thic
##via
burned
category
choosing
clothing
comic
convert
discuss
estimated
exhibition
exposure
extract
gathered
grandchildren
hypothesis
locked
medication
naked
narrator
painted
precious
prepare
scratch
secondly
served
soldier
subtle
surprisingly
volunteer
##ach
##au
##down
##ew
##ivity
##lla
##oe
##position
##rey
32
85
actors
adopted
agencies
arab
attractive
bathroom
broad
capability
chronic
demonstrate
dig
dress
ed
entering
expanding
headed
microbial
olds
printed
rat
sits
spacecraft
spider
stores
touched
tragedy
##ade
##and
##cate
2012
2015
2050
700
abilities
bars
chips
conservative
contract
disappeared
electronics
enzymes
excellent
expertise
farms
furniture
golf
jack
leap
objective
parliament
partly
pig
plot
probability
residents
scenario
ships
slides
storm
strongly
un
wired
##ators
##ats
##ea
##fined
##gue
##imate
##lan
##ptic
##rit
##rust
1970s
1980s
2004
affordable
airport
analyze
biologists
boom
christian
diagnosis
dialogue
dinosaur
dressed
eaten
established
explosion
footprint
genetically
graphic
habit
healthier
hire
homework
pile
proposed
remembered
sisters
staying
tied
transparent
unable
unbelievable
versions
wings
##ane
##box
##dication
##fer
##od
##riving
ain
badly
calculate
comment
competitive
conducted
cooperation
dish
documents
domain
dominant
egg
expansion
harvest
heaven
improved
initially
intended
mate
momentum
occurs
ooh
paintings
quit
realm
regardless
relatives
similarly
sized
structural
##cho
##cted
##gers
##gle
##lessly
##mia
##ologist
##ool
##power
##pse
##rry
##tt
60s
ad
attract
balloon
bubbles
candidate
chile
covering
crossing
dopamine
elderly
enables
experimental
fabulous
gaps
glasses
hip
improving
jesus
listened
mutations
nights
outer
precise
primarily
remaining
restore
rolling
scores
seeking
session
steal
supporting
tissues
tragic
turkey
unprecedented
vagina
##back
##em
##eries
##list
##load
##uts
adapted
approaches
boss
breakfast
calories
capita
cartoons
circuits
damn
difficulty
drew
engineered
forming
ghana
glad
grandparents
instantly
luckily
mail
manager
nets
occasionally
periods
relations
savings
seemingly
shelter
silly
st
terrorist
uk
weapon
##ake
##fold
##makers
##more
##rk
##rn
##row
##sist
##uba
##vating
ambitious
artistic
closest
clue
compete
congo
criminal
database
daughters
fastest
frequently
functional
globalization
guns
highway
imagery
judgment
located
mixed
nurse
observation
perceive
pet
physician
physicist
preserve
rio
sheet
shell
shifting
sticks
syria
threatened
throwing
trucks
van
##art
##aw
##bian
##coming
##ell
##gic
##ining
##ites
##tail
##ution
adventure
answered
comments
decrease
drones
errors
fathers
fragile
genocide
included
injustice
instant
intuition
invested
irony
kick
merely
mobility
motivated
obstacles
october
ownership
passwords
regret
remained
sculpture
smith
stones
tackle
terror
translation
transmission
upside
woke
##bal
##ined
##meter
##omy
##rize
##unt
##west
120
2006
accidents
alcohol
bacterial
bend
bf
bored
classical
collaborative
conflicts
crew
deaf
detection
earthquake
entrepreneur
females
garbage
holy
ill
innovations
insights
investing
linear
mosquito
nerve
panels
professionals
profile
rebuild
rivers
robotics
robust
satellites
shrimp
skull
smallpox
stopping
trash
##ang
##iate
##ient
##ils
##rmal
##umbling
28
alongside
alpha
athletes
atom
barrier
bizarre
cable
camps
colonies
completed
county
currency
describing
dh
disabled
dolphins
expecting
flows
healing
hiding
household
laughing
observe
operations
physicists
polar
pursue
quest
radically
realizing
renewable
responses
rose
sciences
serving
someday
soviet
spectacular
stomach
stroke
suggesting
suspect
terrorists
wildlife
##ack
##ards
##bra
##ently
##ina
##iss
##its
##lves
##oma
##ues
##unk
##uted
2001
annual
burden
damaged
december
dimension
exception
explaining
fancy
fraction
gathering
gonna
hemisphere
hitting
islamic
mall
officer
pencil
pro
programming
promote
reactions
receiving
refer
sharp
soap
stored
tank
traditions
tunnel
unclear
washing
wise
##ced
##ci
##fall
##ff
##lay
##off
##ras
##tone
##uses
##ver
2011
association
bedroom
begun
bite
ceo
compelling
diagram
download
editor
electrons
explains
fits
fortune
generous
initiative
ink
jewish
labs
magnitude
mask
mri
nowadays
origami
owner
oxytocin
pointing
prediction
previously
procedure
ratio
representation
salt
shelf
silver
stability
temperatures
tone
votes
##care
##irs
##lly
##mented
##omic
##ox
##pel
##ployed
##tain
##tics
##try
##vise
algae
arrested
assumption
bound
calm
chairs
civic
climbing
comparison
construct
corporations
counting
countless
disagree
distinct
economist
edges
firm
gained
glucose
hormone
influenced
keys
loves
mike
plug
pride
primitive
reduction
rope
smallest
stretch
subway
trains
tuna
wheelchair
yorker
##cence
##dder
##gling
##imulate
##lapping
##motion
##ques
##rid
##sy
##uate
##uit
##ura
##vised
administration
bags
concerns
conclude
discrimination
division
ethiopia
flowing
hunting
jumped
logical
neuron
offering
output
panel
peers
planetary
pm
predators
recycling
safely
senior
terrifying
transfer
warning
wealthy
whatsoever
##etic
##flies
##ken
##lon
##rove
##ths
##tle
##ull
2003
activists
aggressive
articles
authorities
briefly
categories
channels
clay
constraints
copyright
correctly
dating
deadly
description
dose
earliest
educate
elite
enabled
endless
february
frank
frustrated
investors
leverage
officials
pairs
participation
printer
qualities
readers
sanitation
scenes
shocked
siblings
spain
storage
transplant
trapped
wider
##brating
##iness
##loth
##mate
##ologists
##well
aim
applying
architectural
assembly
constructed
crispr
generating
geographic
graduated
hardest
hated
humanitarian
insulin
intensive
interpretation
journalism
landed
limitations
mapping
mining
mosquitoes
oxford
paralyzed
peter
physicians
posted
pretend
prior
publish
remembering
sadly
saturn
sink
sons
thumb
tribes
tropical
uh
##ager
##ail
##cators
##ction
##eo
##herent
##hs
##kes
##rium
##ually
##ulator
academy
affecting
agent
branches
bug
comics
continents
cosmic
desperately
exponential
fired
friday
gps
hackers
interviewed
manner
marrow
olympics
openness
performed
phenomena
proved
psychologists
racial
relief
republic
sandwich
schizophrenia
shots
substance
surrounding
upset
worms
worthy
##aint
##ame
##aming
##amp
##atts
##born
##ception
##mination
##racy
##reed
##ren
##rupt
##vity
36
alarm
alternatives
antarctica
blown
bucks
captain
consumed
crack
despair
disabilities
drone
eric
facilities
homeless
ignored
inches
index
label
lowest
matrix
morality
nonprofit
package
parks
peaceful
poster
preparing
profits
psychologist
remarkably
reminds
replicate
revealed
signature
smooth
tag
tongue
tumors
vegetables
wires
##ace
##are
##macy
##mon
##print
##ram
##rates
##reak
##reaking
##tained
##urry
##vent
appearance
approaching
april
atomic
bay
bob
client
closing
colored
destroying
detailed
distances
diving
empowered
expectancy
follows
hunt
ignorance
impressive
italian
mainstream
medicines
newspapers
observed
offers
regularly
rough
saharan
shine
speaks
threshold
toys
trace
tracks
##ab
##ains
##ild
##inal
##ister
##maker
##ncing
##oning
##pressed
##wed
acids
approached
believing
boats
bold
bottles
cancers
cellular
challenged
collapsed
column
combat
continuous
demands
devil
discovering
equations
extended
facility
forgot
freely
genetics
guilty
harmful
innocent
intervention
intuitive
joe
joint
july
keyboard
knife
links
lonely
lt
magnificent
neat
needle
overnight
passage
profoundly
propose
punishment
responded
sacred
safer
terrified
ticket
traumatic
travels
urge
vietnam
zones
##ai
##cracy
##cycle
##ift
##ines
##kton
##las
##lic
##llas
##lus
##night
##oids
##orship
##ph
##place
##quate
##rific
##vated
agents
awkward
bat
bullet
cambridge
chromosome
comedy
contemporary
defend
emails
engines
excitement
fibers
guarantee
ha
hired
independence
lands
manipulate
mathematicians
monitoring
november
ongoing
philosopher
planes
reasonable
request
rhythm
rings
roles
staring
striking
succeeded
sustain
teenager
traits
translated
vacation
variation
wedding
##cial
##dus
##lets
##nding
##ou
##pass
##po
##sts
##ttered
##ust
##ying
acid
acknowledge
airplanes
antibiotic
assets
assistance
audiences
beating
believes
blowing
campus
candidates
capabilities
contrary
deck
demonstration
disney
dominated
doubled
dutch
funds
garage
hopes
horizon
machinery
mutation
nutrition
organizing
paradox
pockets
proven
pump
reader
reflection
repeated
shit
storytelling
tie
##ait
##ast
##bits
##cover
##cure
##eer
##ees
##erial
##eze
##gie
##kins
##nder
##oms
##oop
##oot
##ored
##plied
##port
##rds
##rted
##tan
##van
##vision
##wing
##zy
1950s
1990s
2014
activist
analogy
arabic
august
biodiversity
convey
curves
customer
delicious
emotionally
encouraged
entry
failures
fate
flash
footage
formula
fortunate
grief
habits
harbor
impression
kills
korean
lion
lit
methane
minority
mold
origins
perceptions
plain
plastics
randomly
regime
reproduce
resist
returning
sends
sensation
sequences
sixth
socially
specialized
sperm
spinning
straightforward
sugars
tension
thrive
tight
tony
transforming
vessel
wandering
workplace
yield
##active
##gated
##hew
##hing
##inated
##liness
##mo
##outs
##rad
##ued
##ught
achievement
amazingly
barriers
beautifully
bills
blank
blindness
bond
brooklyn
canopy
classrooms
commit
compassionate
compromise
contained
cousin
cream
dan
demographic
discipline
ecological
endangered
gore
grace
indigenous
luxury
nucleus
overwhelming
palm
promised
rays
reaches
slaves
soup
span
tends
wheels
##ache
##ana
##door
##eds
##iting
##lessness
##otic
##pelled
##pression
##site
##tling
##usion
abundant
accuracy
adjust
advances
advocate
anatomy
beijing
bombs
carries
caves
chamber
charges
chemotherapy
communicating
contributed
courses
dilemma
disgust
dropping
ebola
extension
farther
gentleman
gravitational
hat
headlines
hurricane
indonesia
infant
investments
laughed
minimum
mt
nitrogen
nsa
orchestra
outbreak
passive
pigs
platforms
portion
pray
protest
purple
rainforest
rome
rubber
screens
seal
separation
shakespeare
shocking
simulation
stays
teenage
territory
tsunami
##ax
##case
##cation
##eding
##ience
##igation
##kers
##lor
##metric
##rative
##rived
##ules
##zzy
33
actively
aged
asleep
attacked
award
cape
careers
cleaning
confront
connects
crop
cuts
deepest
derek
dies
dirt
drawings
dreaming
dung
estimates
evolving
explored
expressed
factories
frog
girlfriend
guard
intention
intimate
johnson
load
locations
measurements
mines
packed
pants
pathways
phosphorus
publicly
purposes
rejected
sensor
shipping
smartphone
smiling
static
steady
terribly
trajectory
voters
##acy
##ama
##che
##eep
##erry
##gging
##gh
##hips
##ited
##laws
##lt
##mists
##nating
##ners
##orted
##ota
##ots
##rows
##tering
##turing
##ups
agreement
arthur
asian
associate
autonomy
banking
behalf
bowl
builds
buses
cared
carolina
consensus
cows
destiny
devastating
displaced
downtown
drum
encouraging
exhibit
expressions
fallen
flags
grades
helicopter
humility
immense
infectious
intensity
interconnected
jet
lord
maintenance
musician
narratives
nearest
neutral
occurring
offices
orders
panic
philosophers
photographed
prescription
prey
prosperity
rats
realistic
receptors
recession
rent
restaurants
returns
scanning
skeleton
slower
smells
stepped
telescopes
temporary
usa
witnessed
workforce
wrap
yourselves
##0s
##code
##ek
##ern
##gies
##ground
##iction
##lash
##lix
##mist
##oring
##ple
##press
##rse
##rus
##ugal
abandoned
accomplish
amazed
approved
arguing
assumed
attitudes
authentic
binary
competing
concert
curriculum
cycles
describes
detroit
dishes
dolphin
donor
drops
editors
electrodes
elementary
eliminate
entropy
equals
estate
extraordinarily
fault
foundations
gear
greece
harry
heritage
historically
hopeful
horror
kindness
mud
nelson
ngos
nigerian
nuts
overwhelmed
paths
pill
priority
pursuit
rating
recall
refused
reporting
ritual
rna
sunday
tendency
toes
triangle
tribe
tune
variations
venture
wheat
##cious
##dles
##field
##gged
##graphy
##iance
##ican
##ional
##lize
##rm
##uction
##uing
##vian
##zard
29
absence
anxious
bangladesh
branch
breeding
canadian
claims
coach
concentration
cooling
equity
friction
geometry
glacier
graphics
huh
ideology
imagining
immigrants
immigration
implement
injuries
jellyfish
kevin
loads
maker
miserable
motors
observations
partnership
perceived
pharmaceutical
portrait
prisoners
ptsd
recipe
reserve
resolve
risky
screening
seas
sensing
stack
targeted
technically
trump
understands
widespread
##ads
##alog
##ancy
##atory
##att
##ball
##beria
##cidence
##cope
##cratic
##dicate
##erate
##gen
##ially
##ifying
##itarian
##izes
##lated
##like
##ound
##pted
##rest
##rive
##sity
##sters
##stream
##ubble
##ubling
##used
1980
activate
ak
allies
authors
batteries
catching
chromosomes
continuing
controversial
cotton
covers
delivering
documentary
enforcement
enterprise
fever
fires
formal
frightening
goodbye
heading
involve
involving
jeff
kb
kidney
landscapes
lincoln
mandela
maximum
newton
passes
peoples
prevention
pyramid
rb
recognizing
selfish
sheer
shore
shorter
touching
tuned
unhappy
universes
ups
wore
##ander
##arily
##aving
##cities
##cle
##connect
##dam
##fies
##gal
##ham
##ibly
##ika
##ilt
##lers
##ret
##ried
##rise
##rities
##si
##sure
##thy
##uating
##uistic
##ulus
##walk
1960s
2030
apollo
approximately
argued
array
beaten
brands
carpet
clinics
constitution
cooperative
creator
denial
determines
distinction
encountered
enemies
expedition
fairness
filling
ford
grammar
grasp
hierarchy
inclusive
lamp
limbs
mammal
meals
mentor
murder
namely
pizza
pulse
riding
santa
scanner
stigma
strike
struggled
therapies
transmit
vary
woods
worrying
##action
##burgh
##cher
##con
##culating
##eak
##fine
##grade
##head
##iation
##icing
##imated
##mas
##ntial
##old
##ops
##pic
##rah
##wards
##ype
absorb
accelerate
addressing
adopt
affairs
alright
assemble
basketball
bin
blew
blogs
bonds
cliff
coat
consent
consuming
corn
covid
criminals
default
desperate
duty
ecology
electron
enzyme
establish
fence
functioning
hacking
handful
icon
incentive
intent
interviews
item
jungle
lagos
legislation
managers
mankind
microscopic
moore
nerves
norms
owners
patents
rape
reasoning
recommend
reflected
refuse
royal
sacrifice
screaming
shortly
strings
ties
tolerance
ton
trading
tubes
virgin
websites
winds
zealand
##aneous
##antic
##athy
##ep
##ference
##grams
##iated
##idth
##ko
##lve
##mic
##nant
##oked
##ost
##rawl
##rps
##runk
##sal
##sisted
##spect
##tized
##umps
##unction
2013
accurately
achieving
activated
aristotle
astonishing
beam
berkeley
biases
biologist
cage
composition
corners
coverage
deception
deserves
documented
drag
feeds
fisheries
fitness
flesh
glimpse
halfway
historic
hook
illustrate
inevitably
items
jane
lego
locally
managing
manual
nevertheless
optical
password
personalized
predictable
preventing
proposal
publishing
puzzles
recycled
regulation
relation
sauce
selves
sexuality
shining
shrink
sizes
sufficient
swiss
topics
torture
traditionally
trusted
unconscious
useless
weekend
weigh
wishes
##ash
##burg
##cend
##crats
##cre
##cution
##ech
##eek
##iling
##len
##pense
##rging
##stic
##titude
##torian
##ubs
##uke
##ulators
##und
##utor
1960
accelerating
aesthetic
alexander
answering
assignment
ben
bind
charged
chase
clubs
coin
command
copper
cousins
crimes
deals
destination
destructive
elegant
empower
greeks
identities
injured
interior
jews
laughs
mere
mimic
minimize
mushroom
nonetheless
obese
patience
philosophical
poems
poison
politically
practically
predator
proportion
protective
retirement
roman
rotate
saudi
scott
secretary
sexy
shower
simplest
supplies
taxes
thirty
trail
ubiquitous
vocal
winner
wins
##18
##ails
##aking
##doors
##ect
##eration
##hy
##inary
##int
##ker
##kle
##mers
##meters
##national
##oking
##ong
##pace
##rrow
##tage
##ttes
##uration
##zes
130
2002
350
acquired
asteroid
awake
awe
backyard
belonging
bridges
burst
calculations
collaborators
commission
compounds
copies
daniel
dare
demo
diameter
discussions
dumb
efficiently
ego
el
enabling
fans
fragments
gesture
grains
grave
gross
habitats
hometown
homo
implant
individually
inherently
introduction
knees
league
lean
livestock
minus
modeling
multiply
norway
odor
onstage
opera
phd
phenomenal
pond
realities
realization
reproductive
respected
routine
satisfaction
selected
shanghai
stephen
strands
subjective
survivors
teaches
tear
thrilled
timing
trap
trips
troops
twin
viewed
wet
##ansas
##ders
##erness
##esis
##fication
##lical
##lights
##minate
##mise
##mism
##mission
##ode
##omical
##omics
##oon
##ote
##plication
##pping
##raction
##shed
##sin
##top
##urs
42
ab
assuming
bother
breakthrough
bugs
cattle
chains
checked
coastal
confusion
consciously
contributing
corporation
crap
cricket
crossed
cube
cues
defining
detected
diamonds
digit
drought
dynamics
earned
embarrassing
embracing
feynman
fifty
findings
fungi
guards
integration
intentions
intersection
lanes
loan
lock
mama
mathematician
meets
monster
museums
myths
naive
nick
pills
practicing
profession
purely
rejection
rewards
sake
settled
sexually
slave
stairs
stare
talented
threatening
tiles
truths
usage
vice
virtue
welfare
##arity
##berry
##dal
##emen
##ese
##fi
##fusing
##iled
##itch
##lent
##mond
##nounce
##piece
##quire
##rified
##rown
##tating
##tories
##town
##uise
##usive
##vid
##weight
##yrus
2020
abundance
accomplished
addicted
ads
anticipate
berlin
boost
borrow
calculated
cap
commons
conduct
considering
contribution
cruel
dawn
demonstrated
detector
drunk
duck
flood
foster
hallucinations
happily
harmony
hmm
indians
indicate
insane
installation
interpret
investigate
juice
kennedy
kidding
leaf
lifted
medications
messy
peculiar
planned
priorities
prisons
prostate
pulls
regard
releasing
repeatedly
resilient
sadness
seattle
seventh
shops
soccer
spill
stressed
stressful
summit
supermarket
tent
theoretical
uniform
victory
watson
william
zoo
##aker
##ari
##away
##bow
##ean
##fs
##igned
##ipe
##keepers
##kin
##mine
##ntal
##pable
##ract
##rassment
##read
##related
##rical
##tch
##urable
1990
37
50s
accountability
alice
alike
archive
belt
calculus
cheat
collision
comparing
counts
couples
cracks
debris
desktop
disasters
enjoyed
ethics
ethnic
exam
expanded
exploit
fails
famine
flavor
frames
glaciers
grant
hoped
horizontal
howard
installed
labeled
laptops
louis
ma
marketplace
masses
mysteries
nasty
netherlands
parkinson
pleasant
prince
prisoner
programmers
promising
proposition
regulations
reject
republicans
romance
salmon
saturday
sierra
spatial
stimulation
stolen
strikes
strip
surgeries
terrain
tesla
visiting
visualize
warmer
whoever
wrapped
youngest
##ason
##auts
##aws
##cated
##cination
##ecutive
##eological
##ess
##fulness
##generative
##ginable
##gles
##hal
##igating
##issed
##ived
##ja
##lation
##lified
##lify
##onald
##onia
##ores
##raft
##ula
##ume
##version
##vine
2016
72
albert
aliens
atlanta
attracted
belly
beneficial
biomass
broader
browser
camel
cart
catholic
climbed
clinton
collaborate
consists
continuously
eighth
empowering
epic
fatal
gardens
grocery
harsh
hills
hunter
ingredient
intact
integrity
jones
lists
mapped
marks
masters
matched
membrane
memorial
metric
migration
mount
olympic
optimism
passenger
pathway
perspectives
pixels
poll
presidential
probe
producers
raped
republican
rethink
rituals
sam
scenarios
shadows
simpler
spreads
stake
surgeons
sweat
switched
toilets
towns
trans
twist
verbal
wasted
##aa
##ali
##ath
##bble
##cked
##clusive
##elly
##ever
##form
##idal
##ilo
##isms
##iti
##ject
##last
##law
##making
##oes
##oned
##onic
##osh
##pute
##raham
##rch
##ridge
##rio
##rtal
##rude
##servation
##tting
##umbled
##vitation
17th
1998
48
acceptance
annoying
apps
armor
asset
attach
automobile
ban
beetle
bow
brian
bruno
civilizations
clues
coke
congestion
connectivity
cried
crises
criteria
critically
deciding
declared
delay
deploy
deployed
discussing
edit
embarrassed
employment
ex
fishermen
gestures
glue
harness
heavily
heroic
implemented
informal
institutional
jumping
koran
leather
log
losses
marijuana
mesh
minor
officers
philanthropy
potato
pour
privileged
racing
raises
representing
reserves
responding
scarce
sheets
shifted
shifts
skeletal
sooner
storms
strategic
suggestion
supreme
suspended
tables
taliban
tanzania
teddy
textbooks
texture
transformative
venus
viewer
voted
wounds
##brate
##ciation
##dia
##eering
##ential
##eon
##face
##graded
##hen
##hold
##lex
##loaded
##orous
##oven
##ows
##phere
##pi
##pit
##rily
##rip
##station
##sume
##uce
##uct
##ulous
##ums
##ursing
##vel
##vism
##vor
1999
acute
backs
belongs
benjamin
boundary
bronx
candy
ceremony
circular
clarity
clusters
commodity
computation
concentrated
conditioning
converted
couch
craft
decides
elevator
enjoying
entrance
episode
exotic
explanations
firing
format
forty
gallery
gotta
hack
headquarters
hippocampus
horses
ibm
iconic
identifying
infrared
interventions
iq
joining
junk
lasting
lenses
leonardo
liberty
lined
marked
microphone
ministry
newly
noisy
occupy
outbreaks
pad
pan
parenting
philadelphia
pit
port
pot
practiced
reflects
reporter
representative
revolutionary
scans
seats
serves
shoulders
shy
skilled
spite
stasi
suck
tale
texts
tomato
urgent
utterly
viable
waited
##00
##act
##ado
##asing
##asis
##bees
##cess
##clusion
##erving
##fuge
##graph
##ilize
##iology
##leo
##mp
##ncies
##obia
##onio
##phone
##pressing
##ressed
##rupted
##shing
##ssy
##take
##technology
##trators
##uan
##uded
##uff
##urb
##utes
##vators
##ware
##worthy
##ypes
18th
1984
47
acceptable
ag
amino
artwork
asteroids
attempts
augmented
authenticity
avoiding
biosphere
buttons
cares
chasing
chimps
commonly
compound
confession
democracies
disrupt
distinguish
economically
electromagnetic
freezing
frightened
goodness
govern
hop
humble
immigrant
improvements
incident
infect
investigation
israeli
jihad
landing
melt
melting
metabolism
metaphors
mutual
norm
offspring
org
participating
penalty
penguin
plates
precision
pregnancy
primates
procedures
protests
rover
scientifically
scripts
sectors
speeds
spell
stepping
symphony
systematically
titan
trivial
tweet
visually
worm
worn
##all
##arian
##ases
##beat
##beration
##bodies
##erative
##ett
##ght
##gus
##hesis
##hi
##iff
##ima
##isfied
##link
##lium
##losure
##lum
##nter
##owed
##pad
##raine
##ran
##rence
##rim
##roid
##ruit
##udge
##ugh
##ugs
##uver
##vae
##wise
98
adds
adoption
alphabet
altogether
altruism
anniversary
argentina
ashamed
attend
aunt
balanced
boards
brick
brutal
centimeter
choir
colorful
cookie
decent
defines
denied
desires
digits
disk
disturbing
egyptian
eve
exceptions
float
floors
frontier
futures
generates
geography
gorgeous
greatly
headline
heating
helpless
holocaust
hong
inform
intimacy
isolation
jeans
jh
jr
knock
lane
legitimate
longest
luther
massively
mixing
mm
nano
noticing
overhead
palestinian
penis
pie
planted
pose
rains
releases
sahara
sale
seals
senate
shaking
slowing
snake
spiders
streams
supportive
supports
sw
tastes
temple
texting
transit
veterans
waking
wooden
wrist
##any
##ao
##ass
##bable
##berate
##card
##cres
##eda
##elo
##eping
##fire
##force
##gas
##ires
##liver
##minent
##obe
##ographic
##ordinate
##psy
##rent
##rist
##roducing
##rot
##scribe
##tel
##tts
##tus
##ulatory
##umble
##urish
##usted
##ven
##voke
##xes
31
55
abroad
absurd
advantages
ambition
arena
assigned
autistic
bamboo
bio
blocking
brazilian
campaigns
cardiovascular
celebrated
charlie
cheating
contributions
costa
counted
custom
dates
displays
dough
elaborate
electoral
entrepreneurship
favorites
fda
festival
fluorescent
formation
frequent
gandhi
guest
impulse
inventor
ironic
longevity
mastery
maximize
midst
obsession
owe
patch
pleased
prefrontal
princess
principal
publication
punch
quarters
referred
regulate
rescued
richest
rob
rolled
rolls
scaling
seawater
select
sequencing
singapore
sloths
steam
struggles
surround
surviving
testosterone
thereby
throat
tide
tiger
trait
unfair
uniquely
visitors
worldview
##bel
##bert
##bie
##bodied
##cents
##conds
##connected
##cuted
##dled
##ear
##eem
##ement
##gued
##hot
##iculate
##lance
##licit
##lling
##lysis
##mentation
##nets
##ocracy
##ood
##pack
##pling
##ption
##ptive
##quently
##rading
##raw
##rb
##rophic
##sible
##sions
##stated
##ther
##tted
##uated
##ulative
##uling
##unting
##urt
##using
##vasion
##vis
##wn
900
appeal
assistant
asthma
broadcast
bulb
canvas
canyon
caribbean
celebrity
chimpanzee
concentrate
convention
copenhagen
cylinder
deficit
edward
embraced
fantasy
folding
frequencies
frustrating
funeral
gate
genomes
gifts
helium
honesty
hooked
instinct
jazz
jf
jupiter
kicked
lately
laying
lifelong
lifespan
mating
mattered
mature
metabolic
migrate
modified
nicely
occasion
offshore
passengers
pathogens
physiological
predicting
pressures
professors
profitable
recovered
relax
replacing
reproduction
retina
rises
sars
scholars
segment
shed
slime
societal
statistical
submit
swing
tightly
towers
treaty
tuberculosis
ultraviolet
utility
variables
virginia
vocabulary
wonders
##20
##alo
##aneously
##ashed
##ational
##bles
##course
##ctic
##eers
##fare
##fect
##frame
##geria
##iment
##imulated
##iry
##metrical
##oline
##ories
##pies
##q
##rians
##ritic
##roll
##ruce
##tia
##tons
##tra
##umped
##unning
##ustic
##victed
##xon
##ys
##zi
20s
accepting
accountable
affair
anytime
barrel
basement
calendar
computational
confronted
contest
coordination
dc
deforestation
deny
diagnostic
distress
dome
doug
ease
editing
emily
employee
envelope
explode
fixing
generic
generosity
genuine
glow
greenland
guilt
hatred
hence
households
iceland
inherited
instruction
integrate
ipod
joints
kit
leone
li
lightning
literacy
lobby
lottery
matching
michigan
minerals
monday
nazi
needing
neocortex
numerous
pays
pedestrian
phoenix
picks
polls
pouring
questioning
renewables
replacement
representatives
rhythms
sculptures
sensitivity
squid
sticking
strengths
surroundings
tanks
tim
tooth
triggered
varied
visions
visualization
wage
washed
##17
##70
##acious
##ading
##ara
##asurable
##bited
##cally
##cas
##cis
##cro
##culate
##dian
##eology
##erson
##flation
##fuse
##ias
##iped
##isa
##ivor
##ket
##lades
##lawed
##lot
##mad
##mity
##nated
##nds
##nge
##nship
##oiling
##oke
##otypes
##piration
##piratory
##pot
##ptics
##quent
##quiring
##rage
##rc
##rect
##rich
##rition
##rushed
##rving
##sign
##tated
##tification
##tivate
##unity
##urn
##vin
##voted
##we
##xual
96
alaska
altitude
analyzed
angles
apartments
applies
artifacts
assess
atmospheric
attributes
avatar
beside
boots
celebration
checking
closet
cluster
codes
columns
combinations
complain
cope
cosmos
creators
delicate
dictionaries
digging
disappearing
disappears
enhance
equipped
everest
examine
filmed
fruits
georgia
guaranteed
heroin
holiday
intriguing
irrational
irrelevant
jealousy
jersey
judgments
laundry
lebanon
lectures
lg
libraries
likelihood
loose
meditation
mediterranean
mentally
millennium
minded
mozart
noises
novelty
obstacle
offs
ordered
payment
peru
piles
pity
placebo
politician
preparation
processed
prosthetic
ranging
receptor
regenerate
reveals
reviews
sail
sarah
scholar
settle
shoe
significance
skeptical
spare
spark
strict
strongest
sustained
terminal
thankfully
tips
triggers
ultra
velocity
warrior
whistle
winners
##aching
##aks
##alyzing
##asure
##bin
##bos
##cator
##curity
##duced
##elling
##ences
##eral
##erium
##erty
##ette
##eve
##fing
##gical
##gious
##gnition
##gular
##hield
##hist
##iary
##ides
##ilized
##ipping
##iro
##jected
##lar
##lator
##lining
##lory
##loved
##loy
##marks
##mpose
##nie
##oie
##olate
##oos
##rawling
##rge
##sense
##tric
##tto
##uade
##ualified
##uator
##ulsion
##uo
##urban
##urge
##ush
##vert
1930s
1994
1995
1997
acceleration
accused
asylum
automatic
backgrounds
baseline
bionic
bitcoin
burial
cardiac
champion
charter
chess
cola
combining
confirmed
courageous
dancer
directed
disgusting
doses
drama
dreamed
elders
emerges
empowerment
expressing
famously
fights
forcing
founding
fulfill
habitable
hawaii
helmet
install
ireland
jeopardy
joseph
kong
loses
magazines
marathon
margins
meantime
millimeter
mouths
neuroscientists
nightmare
novels
operates
oriented
photons
pipe
pipeline
programmed
psychiatric
pursuing
redwood
regional
reminder
remotely
rooted
sailing
skip
slip
sounded
spends
stadium
stealing
sticky
synapses
telomeres
therapist
tipping
titanic
toll
urine
valued
wolves
writes
yo
##45
##75
##91
##aggering
##aring
##bc
##ccompanied
##cd
##chedule
##cles
##construct
##culture
##edes
##empt
##ester
##eting
##food
##front
##gain
##gets
##giving
##guration
##heads
##heses
##ials
##ishing
##ission
##ith
##itor
##itute
##kind
##lacing
##liance
##live
##mous
##ntana
##olescence
##orative
##phasize
##pike
##range
##rick
##roach
##rrows
##sites
##stable
##stitute
##test
##uctor
##ulsive
##urse
##uspicious
##vals
##vene
##ya
1900
1950
44
afghan
aims
aluminum
ancestor
andrew
apes
apparent
apples
assault
astronomers
automated
banana
beetles
budgets
cardboard
characteristic
committee
composed
contents
convincing
correlation
dancers
delhi
depths
diagnose
discussed
documenting
donated
dragon
duration
entities
evaluate
exercises
expectation
eyed
feathers
firsthand
fog
forecast
forgive
freeze
gaze
grandma
hammer
hygiene
iceberg
impaired
infinity
invasive
jerusalem
joel
jokes
judges
matches
missions
mo
mushrooms
neurological
octopus
orientation
pervasive
pesticides
posters
poured
promises
promoting
propaganda
quantities
queens
relativity
responsibilities
resulting
revealing
reviewed
ridge
routes
semi
slice
slight
slums
snakes
ss
strand
symmetries
synthesis
syrian
tar
tb
tick
tokyo
tremendously
typing
unfortunate
unintended
unseen
variable
verge
viewing
##!
##"
###
##$
##%
##&
##'
##(
##)
##*
##+
##,
##-
##.
##/
##:
##;
##<
##=
##>
##?
##@
##[
##\
##]
##^
##_
##¡
##£
##©
##¿
##ð
##ø
##τ
##в
##ы
##–
##—
##‘
##’
##“
##”
##•
##€
##∇
##♪
##♫
##中
##会
##你
##吗
##好
##文
##说
